1111111011101101111111101110000111111110011100111111111111010011111111101111010100000000101010100000000100000010000000000110010011111110111111001111111100001000111111110010100100000001001011010000000011011001000000010010101111111110101101001111111111100101111111111100101000000001000001000000000011101111000000000001010000000000111000011111111110000001111111110000001011111111101000000000000001110100
0000001000110110000000011101111000000001100100110000000011000011111111101101100011111111110101000000001000100010000000100011010100000000101000010000000011011110111111111001011100000000001111100000000101111010111111111101000011111111111011010000000000011010000000001101000100000000100000001111111110110110000000001111010011111111111110000000000010010001000000010110101000000001010100001111111110010110
0000000001100100111111110110001011111111010101100000000010010011111111110001011100000000010011001111111100101110111111111101000100000000011010111111111100011010000000000000101000000000010101011111111010110100000000000011011011111111001101100000000100011110000000001110010100000000001101011111111010100101111111100101100000000000101100011111111111101001111111111100110111111111101101000000000000010110
1111111101101100000000011000111011111111000000110000000001101011111111111010100100000000111111111111111110000011111111111000110100000000010101101111111101010000000000010000001000000000101101101111111101011111111111111010010011111111000011100000000010000011111111110110100111111111101010101111111111010100111111110010011111111111001011011111111111010100000000010010011011111111000001101111111010110010
1111111111000100000000001001100111111111101100011111111101100100111111111010100000000000111011110000000101100000000000010011000111111110011011101111111100100010000000100010001100000000011101101111111110011011000000000110001111111110111101000000000100111110111111111011010000000001000101100000000010001000111111101001010000000001000011001111111110101100111111101110010011111111000100111111111100001000
0000000000010001000000010001001100000000101100001111111010101111000000001001011011111111111000000000000001011100000000001010111100000000000110011111111011111001000000001011110011111111110110000000000001101011000000010000111111111110110001001111111010010100111111101000100000000000001100111111111100000011111111101000101100000000001011011111111100111011111111110011111111111111111111000000000001111100
0000000101100001111111110110111011111111100000010000000100100000000000001011100000000001100011100000000011001010111111110101010000000000010001010000000100011101111111101100000000000000110000010000000100010010000000010101000011111111001010001111111101010001000000000101001111111111000110000000000011001001000000000000110111111111010011011111111011010000111111110011010111111111101100001111111100100001
0000000011011001000000001100101000000000001000101111111110100111000000011001001011111110111001111111111110110001111111101010111000000000000100110000000110001000000000011010000011111111111010101111111101101110000000010010010100000000100100110000000000111010000000001101001100000000100100110000000101100100000000010011000100000000011001001111111101001001111111111001000100000001010111000000000010000110
0000000101010110000000100101000100000001010111100000001010001000000000000111010111111111111000100000000001100001000000010011101000000000010101000000000111101100111111111101011000000001001001010000000011101101000000011000100100000001000101010000000110000111000000001000011111111111000100110000000100010101111111111101111011111111001010010000000011000010111111111110000111111111001000110000000010111101
0000000010001000000000000010001111111111100110000000000010110001111111111100101100000000110110100000000010100001111111101111110100000000100101010000000000010011111111110011101111111110110001011111111111101110111111111011100011111110011110000000000000010101111111110010111100000000100100111111111111110001111111111001001111111111001001001111111011100011111111111101000011111111001001001111111010110110
0000001001100000000000001010011000000001101110010000001001110111000000100001100000000000100000000000000110111100000000001011000000000001011100110000000101010011000000001010100100000001100100010000000010111001000000001110000000000010010101100000000001111000000000010111001100000000011100100000001001100010000000000100000100000010000010000000000100001111000000000100000100000001011010100000000100100111
1111111110000110000000010000010011111110111101011111111011101010000000001001101000000001000110100000000011001001000000000000111000000001011100010000000000000101000000001010101011111111110011111111111101000101000000011010001011111111101000010000000101101010111111111001111000000000011110000000000111001101111111111100100111111111010000001111111101001101000000000010011011111111000001111111111101101100
1111111111011001111111111110110100000000100101000000000011101011000000010000000111111110100011001111111110111000111111100110110111111111111110010000000001111000111111101001000100000000001101010000000010110000111111111110100011111111011000001111111110010010000000001011000011111111000111000000000000011001000000000100001000000001110010100000000000111000000000000101110011111111100010011111111101000111
1111111110110100111111101010000000000000000100101111111010111111111111111010111011111111110100101111111101100111000000001000001111111110101011110000000011100010000000011011011000000001100110100000000000100111000000000010110111111111101100000000001000111111000000010001100100000001100110001111111101011001111111111000010100000000100001100000000111100100000000000010110100000000011100010000000101000010
1111111011011111111111111111011011111111110011100000000011001110111111110110101000000000100100011111111110001001111111110001000011111110101010011111111111001000000000000100100111111111010000000000000001111111000000000110000011111111100000010000000010010101000000001001110100000000000000001111111111101100111111110110000011111111100000011111111001001110111111110010010011111110000111001111111110000110
1111111100000101111111011100001100000000000100101111111110001100111111101010111011111111110110101111111100011100111111110000001111111110100110010000000001010000000000010000100100000001010001110000000000110110111111110010100011111110101010110000000101111111000000001111101111111111011100110000000001010101111111111011000100000000011001000000000010001100000000011001101100000000000011000000000110000011
1111111100110101111111011100011100000000000011010000000010111111111111111100110011111101110101111111111011101010111111101000101111111110100110100000000010100101111111110101010011111110101010111111111011111111111111110111001111111111101100101111111110110001111111111010100111111111111101100000000001101000111111101000110000000000110001111111111111110011000000000111110000000000010110110000000011001110
0000000110110101000000001010010100000000111000100000000000010101111111110100001111111111110011111111111110000000000000000110010011111111110011010000000010000111111111110111000111111110111000111111111010101001000000010001111011111111101111010000000010000101111111111000101100000000100101101111111100010000000000010111111111111111000000001111111010011011000000000100110100000000111001111111111011100011
1111111011011100111111101100100111111111000100001111111111010010111111011111010011111110110001000000000001101100000000000000000011111110111001101111111010111110111111111111000011111111101111000000000000101110111111111100101011111110001001100000000001000100000000010011110100000000000100111111111101011000111111111010110100000001000001101111111101101010000000010111101000000000101010111111111100011101
0000000011000110000000010101110100000000101100001111111111111100111111100101100000000010000110100000000001001111111111111100100100000000100001100000000001101111000000101000101100000000000100010000000110111001000000010001111011111111100001010000001000010000000000100011000000000000010111101111111111011001000000010001100000000001101010000000000111010000000000011101011100000001101111011111111100010000
1111111101111111111111011101101011111110011100011111111101100110111111110101010000000001001101010000000010010110111111110110100011111101110011111111111100111000111111111100111000000000001100101111111010011111111111111000010011111110001011100000000011011000000000001011000111111111011101011111111101000010111111100000010011111111110010111111111111101011000000000000100011111110000110001111110101101111
1111111111000110111111100111100000000000010011001111111100011100111111110001111100000001000110110000000100010011000000000100111100000000001110011111111001001111000000010010010100000000100001101111111101000001111111110100111011111110011101100000000100110001000000001000101100000000101101001111111111111110000000001111001100000000011111100000000101011111111111111011101000000000001101111111111101010100
1111111111010110111111101000001111111101100101001111111110010001111111101010000100000000011111101111111010011011111111010110001111111110110000011111111011101101111111110101110100000000011101111111111100001111111111011110001011111111110000000000000101100011000000000111101000000000010001111111111001100010111111100111011111111111011101110000000101001111111111101110000011111111011110111111110111110011
0000000001011110000000000001111100000001000101111111111100011110000000000001110111111111000001101111111011010010111111110110011111111111101010000000000001010010111111111010101011111111101011001111111011010111111111111010100111111110110001010000000011100011000000001110110111111110110111100000000011101110111111111111000100000000001011000000000000100110000000010001001000000000000010101111111110101010
1111111100100101111111110011101011111111000100100000000001101111111111110110100011111110100001011111111111111011000000000011100111111110100101011111111011010110111111101011110000000000001110101111111010000100111111101101010111111111001001010000000000101010111111110110100111111111000111010000000000000001000000011101001100000000011100111111111101111000000000010100110100000001010011010000000000000000
1111111100001110000000010010111011111111000010011111111110100001111111110001010000000000101111011111111111011001111111111101000111111111110111010000000011110101111111111000100000000000000101010000000011001010000000011011110000000001101100001111111101010101111111111111000000000000011001000000000110000000000000011010011000000000011000111111111110001011111111101010110111111110111110010000000101011001
1111111001111110111111111111000111111110001010101111111101111101111111110100111111111111000111001111111011010110000000000010111100000001110100100000000000111110000000001000010000000001000010010000001001010001000000100011111100000000001100000000000100101110000000011011111100000001100001010000000011100011111111110011110000000001001000010000000110000100000000001010111100000000111001110000000101000011
1111111111001011111111110101001111111110001111101111111000110101000000000100100011111111101010101111111111111001111111101000100111111110110100001111111111111010111111101100001111111111100010000000000001000010000000010100000100000000000101000000000100010000000000001010110000000000110100010000000101011000000000100010111011111111001100100000000001100101000000011101001100000000011001000000000000101100
1111110111111011111111100001111111111110001110001111111111101100111111100100001111111111110010001111111100110110111111011100011011111111000010111111111001001111111111111011111111111111000011110000000001000100111111111011000100000000101001101111111101100110111111101011000011111110111111000000000000000100000000011001101000000000100000101111111011010000111111111111111100000001011100111111111110100001
0000000101101110111111111101111100000001100111000000000011111110000000001110101011111111101100000000000010100000111111111101001000000000110100001111111110100000000000010000010011111111110000000000000011000101111111110011100111111110101011100000000001101101000000010000110100000000101000100000000011000001111111110100000000000001000111010000000011000010000000001001000111111110010100010000000010100101
1111111101111000000000000111111100000000100110010000000000011001111111111010011000000000101010000000000101011000000000001001100100000000001011101111111011011011000000001011110100000000111110010000000101001100111111110000100011111111100011011111111101001101000000010000101011111111100110101111111111001011111111111100000111111111111110010000000011001110111111101111100100000000001100100000000001110011
0000000111110110000000011101000111111111011010101111111111101100000000001101111011111111101101010000000100101111000000010010101111111110110100101111111101000110111111110100110000000000101110000000000000001110111111110011000111111111100100110000000101000110000000001101010011111111111111001111111111001011111111101100011000000001010111110000000010011101111111111110010100000000010101001111111100000101
0000000101111111111111111011111000000000011001010000000000111110000000001100001100000000001011000000000001101010000000001101001011111111100100111111111110110010000000011010001000000001111001110000000001101111000000001010000011111110101110000000000000100010111111111000010111111111111000101111111110101110111111111101010000000001000101010000000010010001111111111110100111111111100100111111111011101110
0000000011000000111111111101000111111111011011111111111101011100000000001010111100000001011100000000000011011101000000000001100111111111111000111111111111100000111111110110110000000000011000001111111011101100000000000011100111111111000101101111111010010000000000001100110011111111010010110000000000010011111111110011010011111111011011001111111111001101111111110100100111111110101011110000000010001111
0000000011110000111111111110010011111111011011101111111101101001111111110010101100000010000010100000000101101011111111110011100011111111010010111111111101110101000000001001111100000000110110000000000100110001000000001011001000000000111000000000000010000000000000011001100000000000110010010000000011011111111111110111011000000001011111010000000000000001000000001001001100000000111110010000000010000101
0000000001011010111111110111111111111110110000011111111100010001111111110000100011111111111011101111111011100110111111101110101011111111000000011111111111000011111111110000111100000000100111010000000100110110111111110011011111111111101001100000000001011001111111111000001100000000000110100000000011100001000000001000110000000001000001110000000010000011111111101110011000000000110111000000000011011111
0000000101111001111111111000011111111111011011010000000011101001000000000101011000000000100001000000000101101101000000000000100011111111011011100000000011010001000000001111011000000000001010010000000001101110000000001011010011111111111010111111111110011101000000001000000011111110111100101111111011110101000000000110000011111110100100111111111111010110111111101101110100000000100000011111111010010100
0000000000111010000000011010100000000000011111110000001000010010000000000010100011111111001110110000000010110010000000011010011000000001111111000000000101001000111111111010011100000000110010010000000010010010000000011101111000000001001000000000000100000011111111111000111011111111011001011111111111010111000000010100110111111111000010111111111100000101000000000011011000000001100111100000000101101000
0000001010111100000000011101111000000000100110100000000110001000000000010010100000000010000110010000000100001101000000000101000011111111110111001111111111110001000000011011000100000000100110010000000011110001000000000001111100000000111011010000000101011001000000000110101111111111011111010000000001010100000000001010011000000000011001110000000010100101000000001010010100000001100010110000000000111011
1111111111100010000000000001001100000000001100001111111011000001111111100110010100000000010011011111111110100110000000001010010011111111100110111111111100110000111111111101101111111111011101111111111110011101000000000111000111111111011010100000000100010111111111101010111011111111110101001111111011111001000000000000101011111110110000000000000001010010111111110110010100000000000001111111111010011011
0000000110001010111111111110100100000000101110000000000010100111111111011110111100000010000010010000000000011001000000011110001000000000101011111111111001101010000000000110110100000000110010000000000111101111000000001111011000000000000000100000000011111101000000010110010100000000011111010000000010100100111111110101011011111111101110110000000001000111000000001100110111111111100000100000000100111101
0000000001000110000000000110101111111111110010000000000100001110000000000011010100000000100011111111111111010010000000001001011100000000010110001111111100111010000000001110100011111111000010000000000000110010000000010101001011111111111110000000000011111011000000000001101000000000010100100000000010010010000000011011010011111111001011010000000000100110111111111101000111111111000100110000000110011001
1111111110101001000000001110001100000001000001111111111101011010000000010000101100000001100010010000000110011111111111110010100100000001001011101111111011111010000000001101001000000000101011010000000100100101000000000001111011111111111011000000000011111010000000001010101011111110110111101111111111000100000000010000010000000000111001111111111010000111111111111101001111111111101111101111111011111000
1111111101101110000000000000001100000001001000001111111100000100111111111101101111111110110100001111111110100100111111111110101111111111110011100000000010010100111111111100110111111110110010101111111111000110111111101111111100000000001111000000000100100100111111111000000100000000011110011111111001111011111111101000011111111111111101100000000011010010111111110101110111111110001100111111111110001100
1111111111110011111111111100000111111110110001110000000100101000111111111001110100000000110110001111111111000010000000000101010100000001000000011111111110001100111111110110000111111111001100000000000000010101111111110000001011111111010101111111111110111100000000000110011011111111111111110000000100001001111111110011010111111110001100101111111100100001111111111111101100000000100101110000000011010110
0000000011011100111111111001110100000001001001111111111100011110000000010000010100000000101010011111111111101000000000000100100000000000111110001111111110000111111111110100111111111110111001000000000001001001000000000110010000000001000000011111111101001101000000001010100111111110111010101111111010010011111111101011110011111111001000111111111111110110000000000001011011111111101010110000000000010000
0000000101110111000000000011011000000000001101110000000101110011000000000010001000000010001110100000000000100000000000000001001100000001100101000000000010000110000000000110110000000010000010101111111110101101000000001100010011111111100110010000000111000111000000100001110100000001010001110000000100010011000000001110100100000001110110110000000010011011000000001100000111111111111011101111111110010100
0000000000000111000000000011101011111111110110101111111010100101000000010000100111111111011000010000000001000100111111110110011000000000101111100000000001111101000000001011010111111111010111110000000100100011111111110101100000000000011000100000000011011100111111111010011111111111000011101111111101001000111111101110100111111111010101101111111100110011000000000110110111111111101110111111111101011001
0000000010111001111111100110011011111111001110100000000010010001111111110111000000000000001111011111111101101011111111111110001011111111011110110000000000001110000000000010000111111111100001000000000101001000111111111010111000000001001001001111111111101100111111111111110000000000110110100000000100001010111111101110111000000000101110010000000011011010000000001000100011111110111000000000000000101011
1111111111110101111111111001011011111111000111101111111110100111111111101100101011111111110101101111111111001000111111111111010111111110010110110000000001100011111111101100001100000000010001111111111111011101111111100110110000000000100011111111111110101001111111111101001111111110111101111111111001111100000000001001000011111111100111011111111010000100111111111001111011111110001001001111111000110100
0000000001001000111111111011101000000000001000100000000010101011000000010011011011111110100011010000000001100011111111100100011011111111000001100000000000100001111111111001111111111111000011011111111111100010111111111100000100000000111110101111111001100001111111101011100011111101111001101111111010100100000000001111100011111111001110110000000001100110111111111001110011111111001100100000000000001110
0000000101001110000000010010011100000001001010000000000010010000000000000000001100000001001001111111111100100111111111111110011011111111011010010000000100100010111111111011111100000001010001111111111111001100000000001010101100000000000111010000000100101001000000001000100100000000011001100000000000111010000000000000111011111111001010011111111010100011000000001010010011111111110100110000000100110110
0000000101001100000000000111000100000001001011011111111111011000000000010011111000000001011100000000000111000001000000010111110000000000101110110000000010111100000000000001110111111111010001100000000000001100111111101101101100000000001011101111111100011010111111110100010111111111011011111111111011001100000000000111110100000000101101010000000010001011111111110011000000000000000010100000000010111010
0000000000001111000000001100001111111110100110101111111110101101111111101010101111111111110000101111111110000111111111100101001111111111010001001111111100110111111111110100110111111110110100010000000000010010111111110100000111111111100011101111111010011110111111100100110111111110110100001111111011000110000000001000100111111111110100110000000010010100000000000111010111111110011101110000000000101101
1111111101101101000000000010100011111111010101010000000001110101000000000000001100000000100100001111111111010001000000000100010011111111101100100000000110001011000000000001110111111110110001111111111111100010000000000100001000000000000100101111111111000101000000001010111111111110111110000000000010110010111111111001001011111111110111110000000100010110111111110011011000000000111011010000000001100010
0000001000010101000000010011100111111111100001101111111010000000000000001111001100000001000000100000000101110111000000000000011111111111101110010000000010001011000000010011111100000000100000001111111111100010000000000001111011111111111000010000000011110011111111110101010011111111100000101111111110011011111111111111100000000001011110100000000101000111000000001010111100000000101111111111111111111100
1111111111000011000000010100011100000001111001110000001000001101000000110000010111111111101010010000000001110100000000001110111100000000101010010000000010100110111111110000001000000000100010001111111111011011000000000110000100000000100100101111111001010110000000000000111111111111110011110000000101111100111111111100100111111111110000011111111100000000000000010001001011111111011101101111111111001101
1111111011000001111111111110011011111111100111001111111101000010000000000100110111111111100110011111111110011010111111101100000011111111001010101111111111111101111111111100000111111111110000001111111001110010111111110001101100000000000100111111111111011000000000001111011111111111110111001111111111111000000000001101001000000000000110011111111011010110111111101000110011111111111100000000000010011001
0000000011101011111111101110110111111111000101110000000111111110000000001001001100000000111011111111111100000100000000000111000100000001010101000000000111111110000000000111001111111111001000001111111101100000000000000110110000000001010011011111111110000010111111101100111111111111000011100000000011001010000000001000010100000001001010010000000000111011111111110000000000000000110100100000000001101101
1111111100111101000000001011000011111111111111111111111110110010000000000011000000000000011011010000000001111010000000010100111011111111001000100000000100000101000000001011101000000001001101110000000011101011000000001110011100000000111100001111111110011000000000001110101011111111010101110000000000000010111111111001111000000000011110011111111100011101000000010110110011111110110110001111111110100011
1111111100111010111111110010011011111111001111011111111000011110111111110010000011111111000011100000000000100000111111101110010111111110010111111111111101111100111111111101001011111111010000110000000010011101111111111001110011111111001001100000000110101000111111111111010000000000110100101111111110111001000000001010100111111111011110110000000010001001000000010000101000000001001011001111111111000111
1111111101100100111111111110001111111110110111001111111011011010111111111010011000000001010010010000000100001001000000011000001000000000111100000000000000101010000000010110111000000000001001110000000010101010000000010101110000000000010000100000000100111000000000001100111111111111100101010000000101100101111111111000101111111111010110101111111111100000000000010010110000000000001011010000000010111011
1111111011001111111111110100000011111101100000111111110110100110111111101110011111111111011010011111111001100101111111101001001100000000001100001111110111111111000000001111110100000000111001111111111101110110111111111010101011111110010011110000000100000110111111111111001111111111010111001111111111110010111111110010010011111111100001101111111111101000111111110110110011111111010010101111110111001011
1111111101001011111111111100000000000000000010100000000000110001111111110011000011111110111000100000000000100111111111110101100000000000010100000000000011110101000000010001111000000001100110010000000101101100111111111101111011111111100010011111111111001000000000000011100100000000011101100000000010110101111111111000110000000001001000111111111111111111000000011010000000000001010110010000000101000001
1111111001010011111111100110101111111101101011111111111011000010111111101100011111111111000000001111111011001011111111100011001111111111101010001111111110101110111111110100110111111110010000011111111111000010111111100110100111111111010001100000000001001110000000000111111100000000100001111111111111011000111111101001001100000000000010101111111110100110111111110011001111111111001110001111111000001111
0000000101111111000000010101111100000001100101110000000101010111000000010000101111111111110001011111111110111100000000010000110111111111101111110000000011110000111111110100101100000000110111010000000011111110000000001100101000000000110010101111111110100011111111101001110111111111110001011111111010100100000000001011100111111111011100010000000010100001111111101110100011111111000001101111111100101100
0000000000011011000000010011100111111111111011010000000010000100000000000000000100000000001100000000000000011110111111111111110000000000100010000000000101000110000000010010000100000000100000001111111111100100111111110001000011111111100010001111111100110110000000001100111011111110110001100000000001101101000000010010001000000000110110101111111110011101000000001110110100000000010011000000000000000101
0000000010001000000000000001010100000000010000011111111111101000111111101111001100000001011110111111111101011001111111100111011011111110000000101111111100110010111111110110001011111111111110110000000010011111111111011111001011111111011011110000000011010011111111111000110100000000000010001111111000110110111111110001011100000000001011101111111101101011000000000010110111111110100110101111111111001100
1111111010110101111111110010001111111110101011011111111111101101000000010000001111111111000001010000000000101011000000000000111011111111001110101111111110100000111111111101010011111110001111111111111100000110111111110101000000000000011111101111111001110101111111100110000111111110011110101111111010100100111111111001010011111111100111111111111111000001111111110000011000000000110011111111111111111010
1111111110111001000000010011110000000000000000000000000100101001000000000111010100000000100000100000000000110101000000000011100011111111110001100000000101011011000000000100100000000000101001110000000010111010111111101101110011111111100011100000000010101110111111111100000011111111001010111111111010110010111111110101001000000000001111100000000010100100000000000000000011111110101001011111111111100001
0000000011011101111111110101000100000000011111000000000100110001000000010101110100000001001001010000000010001010000000000111100000000000111001011111111101011001000000001111001000000000101100100000000001011110111111101011111100000000100011000000000101011110111111110101001011111111011111011111111011001111111111101001001100000000011110111111111010010111111111111110110100000000101101011111111100111011
0000000001101101000000000111010000000000001011111111111001101011000000000100001100000000100111010000000010010010111111110101001000000000100101101111111100011111000000001011101100000000000011001111111101010001000000000001000011111110001101000000000011011101000000001000100100000000010101101111111110001101111111101011001011111111011010110000000100010101111111110111100011111111101011101111111001111110
0000000000101011000000000101111111111111100101001111111101101100111111110011111011111110101010000000000010001101000000001001000000000000001000110000000010001011111111101001011100000000010001011111111011011010111111110000100100000000111110101111111011110111111111111001000111111111010100110000000001111101111111110010110000000000001010000000000011000111111111110001110100000000010100000000000011001011
0000000010111110111111110010001011111111010010101111111101011011000000000110011111111111000011111111111101111101000000010000000011111111011011010000000100111101000000001101011111111111011110100000000100000010111111110010010100000001000011000000000000110001111111110001110011111111000010010000000001101100111111111010111111111111110100011111111111110101000000000011011111111111101000011111111101000000
0000000011010000000000010011000100000010001101000000001100001111000000101110001011111111110000001111111110101011000000011111000000000010111000000000000100011111111111110000011111111111111100000000000000111111000000100011110000000001100010111111111111100100000000011100101100000001101111100000000000010111000000011001001000000001000111110000000001001110000000000000100111111111001001010000000101111100
0000000010001110111111101101110011111111101010001111111101010111111111110101011111111111000110010000000011000000000000001011001011111111101111100000000101111001111111110000111111111110110010001111111101011001000000001011000000000000100011111111111101110111111111111111011100000000010000110000000100111010111111101110100000000000110100110000000010111010000000001000010011111111111111100000000000101011
0000000100100101000000010000100000000001101011110000001001111011000000101001011011111111111010100000000001110001000000011001100100000010001001110000000111101101000000000100010100000000010111100000000001010011000000000100110000000001100100001111111101010011000000011001011000000010011100100000000010000111000000011111000011111111011010100000000000000000000000100100011000000010100000000000000000011011
1111111111001110000000000010111011111111011001101111111111110111111111110010011111111111111001000000000010101100000000000111010100000001100001010000000101001000000000001010001111111111101001100000000001010111000000001101101011111111011000010000000011010011000000000011110011111111000011001111111100100111000000001110011000000001000101001111111110000111000000000111011111111111011001000000000000010101
1111111100100010111111100100111100000000001100101111111110111110111111110011001111111111101001111111111011001001000000010000000000000001000010000000000011100111111111111001011111111110101111100000000100101011000000001101100111111111000001101111111101101001111111110100001011111111110000111111111100000011111111111110001100000000100101110000000001000101111111110000100100000000001101010000000010101010
1111111011110000000000010111001100000000000000011111111110000010111111111001101000000001000110001111111101010110111111111111000111111111011111010000000000110011000000000101110011111111100110011111111101110100111111101000000100000000111011001111111111110100111111110010011111111111100011010000000001010001000000001111001111111111010101110000000011100101111111111110010011111111101001101111111100101011
0000000010111011000000001000110000000001010000000000000100100010000000010110001000000000001101000000000001110111000000000100101000000001001010010000000011000100000000010010011000000000001011100000000010010000000000000000000100000001101110000000000010100000111111111010100000000000111111010000000000010001000000011010111111111111011011110000000000101001111111111101111111111111001100000000000100110011
0000000001001111111111101000111000000000110100000000000010010110000000011000011000000000010001000000000011100001000000001111100100000000100000010000000000100100000000001001101100000000100111001111111101101100111111111110001100000000101011111111111111001101000000001100001000000000100001001111111111011001111111111011111000000000001010101111111110011011000000001001111011111111101111101111111110001111
0000000000010110000000011010011000000000100110111111111111101111000000100100011000000000011101110000000100000101000000010000001100000010001011110000000100100010000000010101011000000001010000100000000010010010000000010111100100000001101111110000000101110010000000010101110011111111011011111111111111110010000000001100110111111111010011000000000000010101111111111100010100000001100101011111111111101001
0000000000110100000000001111000111111110101110101111111101101111000000010100100011111110110011011111111111000011111111111011000011111111110110101111111110010000000000000011111011111111101011110000000001110101000000010010001000000000011100100000000010001100000000000111010011111111101111101111111111100101000000010010110111111110111110010000000011110100111111111011100111111111110010110000000110100001
0000000100100110000000011100111100000000100110000000000011000110111111111101001011111111111001010000000100001010000000010110111100000001000111010000000000010010000000000000111111111111111011100000000000101011000000000010111100000000111000001111111100110100000000010010000111111111000111001111111101001100111111110010000000000000001111000000000100111011111111111010111011111110110100000000000010001010
1111111101010010000000000011101100000000111001111111111110111000111111111101010100000000000100111111111010101011111111110001111111111111010101000000000010100101000000000110110100000000001010001111111001011001111111110101110100000000011001001111111111110111111111111101010011111111100110011111111000111000111111111010101100000000010010000000000000111011111111101001010011111110010110011111111010011111
0000000010001111000000000100100111111111101100001111111110111101000000001001100111111111001100100000000011010100000000001110100111111111110110000000000010100111111111110100001011111110110010000000000000000000000000000001100100000000100111000000000010011111000000001001101011111111110000011111111111001111111111111001001111111111101101011111111011000110111111110111100100000000001001010000000111100111
0000000011110100000000010110000100000000011010100000000011011000111111110111101100000001010011011111111011101100111111110000110111111111101100110000000010110000111111110000111011111111110100011111111101111011111111101111110011111111010011110000000010011111000000000010110111111111000010001111111110010111000000000001110111111111101000110000000011000001111111101111101111111111110110010000000000100111
1111111111111101000000011101000100000001010101000000000100011011000000010010110000000000101101010000000001100001000000000000010000000000111110000000000011001000000000100000111000000000001110110000000110001100000000011110010100000001000101111111111110010001000000010101001100000001000001000000000010010001000000001100100000000001010101111111111110100000000000011000001100000000011111000000000100000110
1111111100001000111111110100010111111111011101011111111110101111111111100111001111111110111000001111111101000011111111111010011100000000100000111111111101010100111111101010111011111111100111011111111111010110000000000011001100000000010101100000000101000001000000001110111011111111111001101111111101001001111111111001111111111111011000001111111011100001111111111000111000000000101010011111111001101100
0000000011100010000000000100111000000001000011111111111110001010000000000110110111111111011000010000000010100011111111110111111111111111010001010000000100001001111111110010110000000000101010000000000000010011111111110011110100000000101000000000000001110011000000001001110000000000111101010000000001101101000000000001110011111110101010110000000000011000111111111001001111111111000000110000000010110000
1111111111101111111111110011101000000000101010000000000011010101000000001111000111111111110010011111111101110101000000000100011111111111111101110000000010111001111111110011100100000000100101100000000100101101000000000100101111111111011100001111111110000001000000010010010000000000100010000000000000000111000000000111011100000000010100101111111100010110000000000101101100000000100011100000000010110111
0000000101010000000000001101001011111111110111110000000100010010111111110110010000000001010011000000000010101101000000010001010011111111110110111111111101100001111111111010111011111110111110110000000010010010111111110101010000000000101001011111111101101101000000000101001000000000000010000000000001101011111111101010111111111111001111101111111111101111000000001010100111111111001101110000000011010001
0000000001010000000000010110001000000000101000110000000011011100111111110100100111111111000110000000000100111100000000000110110011111110110100100000000000000000000000000010010011111110110110101111111101110001111111101011101111111111111111100000000001100011111111101101110011111111011011010000000000011000111111110001101011111111001110100000000010011101000000001001111111111111110000001111111100111110
0000000111011111000000000110010000000010000011000000001001011111000000100000101000000000001111010000001001000110111111111011010111111111100101010000001001011100000000010100000000000001101101100000000110010110111111111100011000000010010111000000000010110010000000010001111000000001001100100000000001100111111111111111000000000001010011110000000011000001111111110000000000000000010000100000000100011111
1111111011011000111111110010101011111111001001111111111111110011000000010010011111111110110100110000000010101010000000001110011011111111100011011111111101100000000000000000101100000000001100100000000000111001111111101000110011111111111100111111111011010010111111110011010011111111010100001111111100101011000000000011000011111110110011010000000001011101111111110001011100000000011101011111111110101101
